<?xml version="1.0"?>
<opencv_storage>
<stage5>
  <maxWeakCount>25</maxWeakCount>
  <stageThreshold>-1.6105849742889404e+000</stageThreshold>
  <weakClassifiers>
    <_>
      <internalNodes>
        0 -1 2052 -5.0706827640533447e-001</internalNodes>
      <leafValues>
        1.3793977908790112e-002 -7.7692651748657227e-001</leafValues></_>
    <_>
      <internalNodes>
        0 -1 227806 6.0454390943050385e-002</internalNodes>
      <leafValues>
        -1.8189299106597900e-001 4.2745617032051086e-001</leafValues></_>
    <_>
      <internalNodes>
        0 -1 2837 -2.4000033736228943e-002</internalNodes>
      <leafValues>
        -1.1669998168945312e+000 5.9429410845041275e-002</leafValues></_>
    <_>
      <internalNodes>
        0 -1 33849 8.6174532771110535e-003</internalNodes>
      <leafValues>
        9.0596273541450500e-002 -9.1704595088958740e-001</leafValues></_>
    <_>
      <internalNodes>
        0 -1 5481 -1.3359361328184605e-002</internalNodes>
      <leafValues>
        4.4344183802604675e-001 -9.8546236753463745e-002</leafValues></_>
    <_>
      <internalNodes>
        0 -1 82854 -3.6253898870199919e-003</internalNodes>
      <leafValues>
        -7.8041005134582520e-001 6.9167152047157288e-002</leafValues></_>
    <_>
      <internalNodes>
        0 -1 4228 8.1050219014286995e-003</internalNodes>
      <leafValues>
        -1.4258883893489838e-001 3.6771988868713379e-001</leafValues></_>
    <_>
      <internalNodes>
        0 -1 150713 -2.4039121344685555e-003</internalNodes>
      <leafValues>
        2.3597104847431183e-001 -2.2027800977230072e-001</leafValues></_>
    <_>
      <internalNodes>
        0 -1 143706 -3.1801648437976837e-002</internalNodes>
      <leafValues>
        4.1587924957275391e-001 -1.2708312273025513e-001</leafValues></_>
    <_>
      <internalNodes>
        0 -1 166542 -7.3263281956315041e-003</internalNodes>
      <leafValues>
        2.5782087445259094e-001 -1.9663487374782562e-001</leafValues></_>
    <_>
      <internalNodes>
        0 -1 17487 -1.5363923739641905e-003</internalNodes>
      <leafValues>
        -8.3419966697692871e-001 6.5876521170139313e-002</leafValues></_>
    <_>
      <internalNodes>
        0 -1 82844 5.0282254815101624e-003</internalNodes>
      <leafValues>
        -1.3368481397628784e-001 3.6822104454040527e-001</leafValues></_>
    <_>
      <internalNodes>
        0 -1 229009 1.2020955327898264e-003</internalNodes>
      <leafValues>
        7.8799590468406677e-002 -6.3158529996871948e-001</leafValues></_>
    <_>
      <internalNodes>
        0 -1 3391 1.0250049829483032e-001</internalNodes>
      <leafValues>
        -1.0098533332347870e-001 4.9042826890945435e-001</leafValues></_>
    <_>
      <internalNodes>
        0 -1 224472 -7.2712851688265800e-003</internalNodes>
      <leafValues>
        -8.7384766340255737e-001 6.5054312348365784e-002</leafValues></_>
    <_>
      <internalNodes>
        0 -1 252702 -1.8215634627267718e-003</internalNodes>
      <leafValues>
        4.3759334087371826e-001 -1.1080491542816162e-001</leafValues></_>
    <_>
      <internalNodes>
        0 -1 2 1.7237612046301365e-003</internalNodes>
      <leafValues>
        6.1407368630170822e-002 -9.8950088024139404e-001</leafValues></_>
    <_>
      <internalNodes>
        0 -1 76539 8.0155476927757263e-002</internalNodes>
      <leafValues>
        -1.8781544268131256e-001 2.5730937719345093e-001</leafValues></_>
    <_>
      <internalNodes>
        0 -1 261559 3.2700267620384693e-003</internalNodes>
      <leafValues>
        1.0828509926795959e-001 -4.5417860150337219e-001</leafValues></_>
    <_>
      <internalNodes>
        0 -1 211147 -4.3627928243950009e-004</internalNodes>
      <leafValues>
        2.1827702224254608e-001 -2.1547192335128784e-001</leafValues></_>
    <_>
      <internalNodes>
        0 -1 42032 -1.5251513570547104e-002</internalNodes>
      <leafValues>
        -1.1193765401840210e+000 4.9937490373849869e-002</leafValues></_>
    <_>
      <internalNodes>
        0 -1 252902 -9.3353921547532082e-003</internalNodes>
      <leafValues>
        4.9105459451675415e-001 -9.4917416572570801e-002</leafValues></_>
    <_>
      <internalNodes>
        0 -1 17488 1.4367525000125170e-003</internalNodes>
      <leafValues>
        7.7797926962375641e-002 -6.9435244798660278e-001</leafValues></_>
    <_>
      <internalNodes>
        0 -1 180573 1.6381047666072845e-002</internalNodes>
      <leafValues>
        -1.0303591191768646e-001 5.7894951105117798e-001</leafValues></_>
    <_>
      <internalNodes>
        0 -1 240052 2.2341106086969376e-003</internalNodes>
      <leafValues>
        8.6441352963447571e-002 -5.4223954677581787e-001</leafValues></_></weakClassifiers></stage5>
</opencv_storage>
