<?xml version="1.0"?>
<opencv_storage>
<stage7>
  <maxWeakCount>29</maxWeakCount>
  <stageThreshold>-1.4845700263977051e+000</stageThreshold>
  <weakClassifiers>
    <_>
      <internalNodes>
        0 -1 3072 -3.5963580012321472e-002</internalNodes>
      <leafValues>
        -1.2565721571445465e-001 -7.2568380832672119e-001</leafValues></_>
    <_>
      <internalNodes>
        0 -1 68358 -2.3005217313766479e-001</internalNodes>
      <leafValues>
        2.8138312697410583e-001 -1.6718515753746033e-001</leafValues></_>
    <_>
      <internalNodes>
        0 -1 1523 -4.9809566698968410e-003</internalNodes>
      <leafValues>
        2.9897347092628479e-001 -1.4981980621814728e-001</leafValues></_>
    <_>
      <internalNodes>
        0 -1 142663 1.1871727183461189e-003</internalNodes>
      <leafValues>
        6.9153554737567902e-002 -6.0256820917129517e-001</leafValues></_>
    <_>
      <internalNodes>
        0 -1 5489 2.1011682227253914e-002</internalNodes>
      <leafValues>
        -5.6333929300308228e-002 5.0872009992599487e-001</leafValues></_>
    <_>
      <internalNodes>
        0 -1 156283 2.0572273060679436e-003</internalNodes>
      <leafValues>
        4.5483786612749100e-002 -9.4678765535354614e-001</leafValues></_>
    <_>
      <internalNodes>
        0 -1 229816 2.2182801738381386e-002</internalNodes>
      <leafValues>
        -1.7730955779552460e-001 2.3789109289646149e-001</leafValues></_>
    <_>
      <internalNodes>
        0 -1 36928 3.6436762660741806e-002</internalNodes>
      <leafValues>
        -1.3002486526966095e-001 3.2444372773170471e-001</leafValues></_>
    <_>
      <internalNodes>
        0 -1 222781 1.1941882781684399e-002</internalNodes>
      <leafValues>
        -1.2312117964029312e-001 3.5441270470619202e-001</leafValues></_>
    <_>
      <internalNodes>
        0 -1 82852 1.5853862278163433e-003</internalNodes>
      <leafValues>
        5.3564138710498810e-002 -7.5461941957473755e-001</leafValues></_>
    <_>
      <internalNodes>
        0 -1 708 1.1883677914738655e-002</internalNodes>
      <leafValues>
        6.9486320018768311e-002 -7.1532464027404785e-001</leafValues></_>
    <_>
      <internalNodes>
        0 -1 63 -1.3678452000021935e-002</internalNodes>
      <leafValues>
        -4.7776499390602112e-001 1.0877507925033569e-001</leafValues></_>
    <_>
      <internalNodes>
        0 -1 184678 -2.8074044734239578e-002</internalNodes>
      <leafValues>
        6.5331923961639404e-001 -7.3274686932563782e-002</leafValues></_>
    <_>
      <internalNodes>
        0 -1 2012 -8.6396522819995880e-003</internalNodes>
      <leafValues>
        6.1724716424942017e-001 -8.8328674435615540e-002</leafValues></_>
    <_>
      <internalNodes>
        0 -1 180504 2.7104830369353294e-003</internalNodes>
      <leafValues>
        -1.0718274861574173e-001 3.8569253683090210e-001</leafValues></_>
    <_>
      <internalNodes>
        0 -1 261040 1.0765504091978073e-002</internalNodes>
      <leafValues>
        4.6122532337903976e-002 -1.1429108381271362e+000</leafValues></_>
    <_>
      <internalNodes>
        0 -1 252730 -5.6562265381217003e-003</internalNodes>
      <leafValues>
        4.4976392388343811e-001 -9.4977922737598419e-002</leafValues></_>
    <_>
      <internalNodes>
        0 -1 128283 -3.0766343697905540e-003</internalNodes>
      <leafValues>
        -5.7972449064254761e-001 7.0326395332813263e-002</leafValues></_>
    <_>
      <internalNodes>
        0 -1 181957 3.3866129815578461e-002</internalNodes>
      <leafValues>
        -1.3605895638465881e-001 3.1542879343032837e-001</leafValues></_>
    <_>
      <internalNodes>
        0 -1 225912 3.3114984631538391e-002</internalNodes>
      <leafValues>
        -1.4076863229274750e-001 3.0051884055137634e-001</leafValues></_>
    <_>
      <internalNodes>
        0 -1 177834 -7.6946914196014404e-003</internalNodes>
      <leafValues>
        3.5306137800216675e-001 -1.1706357449293137e-001</leafValues></_>
    <_>
      <internalNodes>
        0 -1 204939 5.2791358903050423e-003</internalNodes>
      <leafValues>
        6.8887032568454742e-002 -5.7134491205215454e-001</leafValues></_>
    <_>
      <internalNodes>
        0 -1 93876 -6.9676376879215240e-003</internalNodes>
      <leafValues>
        4.0091142058372498e-001 -9.5017202198505402e-002</leafValues></_>
    <_>
      <internalNodes>
        0 -1 63393 -1.1176895350217819e-002</internalNodes>
      <leafValues>
        5.7194811105728149e-001 -9.1079831123352051e-002</leafValues></_>
    <_>
      <internalNodes>
        0 -1 17491 -4.3317079544067383e-003</internalNodes>
      <leafValues>
        -8.9700794219970703e-001 5.2168142050504684e-002</leafValues></_>
    <_>
      <internalNodes>
        0 -1 17411 3.8483347743749619e-003</internalNodes>
      <leafValues>
        6.9583959877490997e-002 -6.9332271814346313e-001</leafValues></_>
    <_>
      <internalNodes>
        0 -1 193953 -9.5587614923715591e-003</internalNodes>
      <leafValues>
        4.4937506318092346e-001 -8.8903762400150299e-002</leafValues></_>
    <_>
      <internalNodes>
        0 -1 158962 -4.2896913364529610e-003</internalNodes>
      <leafValues>
        3.4253990650177002e-001 -1.0917214304208755e-001</leafValues></_>
    <_>
      <internalNodes>
        0 -1 131054 4.7167665325105190e-003</internalNodes>
      <leafValues>
        -1.0427981615066528e-001 4.2829617857933044e-001</leafValues></_></weakClassifiers></stage7>
</opencv_storage>
