<?xml version="1.0"?>
<opencv_storage>
<stage8>
  <maxWeakCount>41</maxWeakCount>
  <stageThreshold>-1.5856366157531738e+000</stageThreshold>
  <weakClassifiers>
    <_>
      <internalNodes>
        0 -1 99310 -3.5417371988296509e-001</internalNodes>
      <leafValues>
        1.0200718790292740e-001 -5.4227834939956665e-001</leafValues></_>
    <_>
      <internalNodes>
        0 -1 50392 3.0571669340133667e-003</internalNodes>
      <leafValues>
        -1.7217504978179932e-001 2.8032532334327698e-001</leafValues></_>
    <_>
      <internalNodes>
        0 -1 236030 1.6485370695590973e-002</internalNodes>
      <leafValues>
        -7.9697705805301666e-002 5.3239279985427856e-001</leafValues></_>
    <_>
      <internalNodes>
        0 -1 1510 -3.1642294488847256e-003</internalNodes>
      <leafValues>
        3.0803850293159485e-001 -1.3990849256515503e-001</leafValues></_>
    <_>
      <internalNodes>
        0 -1 5383 7.4290982447564602e-003</internalNodes>
      <leafValues>
        8.7087213993072510e-002 -4.8669233918190002e-001</leafValues></_>
    <_>
      <internalNodes>
        0 -1 5483 -9.7191780805587769e-003</internalNodes>
      <leafValues>
        4.2271015048027039e-001 -7.3412805795669556e-002</leafValues></_>
    <_>
      <internalNodes>
        0 -1 252196 -1.3640712946653366e-002</internalNodes>
      <leafValues>
        4.7686567902565002e-001 -1.0346955060958862e-001</leafValues></_>
    <_>
      <internalNodes>
        0 -1 10714 9.9751688539981842e-003</internalNodes>
      <leafValues>
        7.9657278954982758e-002 -5.1355278491973877e-001</leafValues></_>
    <_>
      <internalNodes>
        0 -1 14491 2.9325988143682480e-003</internalNodes>
      <leafValues>
        1.1972644925117493e-001 -4.7238758206367493e-001</leafValues></_>
    <_>
      <internalNodes>
        0 -1 98629 -1.6750920563936234e-002</internalNodes>
      <leafValues>
        2.8792923688888550e-001 -1.4846755564212799e-001</leafValues></_>
    <_>
      <internalNodes>
        0 -1 51763 -3.7508213520050049e-001</internalNodes>
      <leafValues>
        -1.0132364034652710e+000 5.2121676504611969e-002</leafValues></_>
    <_>
      <internalNodes>
        0 -1 214623 -1.8924911273643374e-003</internalNodes>
      <leafValues>
        -9.9474281072616577e-001 4.5069366693496704e-002</leafValues></_>
    <_>
      <internalNodes>
        0 -1 261166 -4.2854570783674717e-003</internalNodes>
      <leafValues>
        4.8949083685874939e-001 -8.0886550247669220e-002</leafValues></_>
    <_>
      <internalNodes>
        0 -1 211037 1.0132157476618886e-003</internalNodes>
      <leafValues>
        9.7721211612224579e-002 -4.2389047145843506e-001</leafValues></_>
    <_>
      <internalNodes>
        0 -1 178464 1.0716389864683151e-002</internalNodes>
      <leafValues>
        -9.1286197304725647e-002 4.8644670844078064e-001</leafValues></_>
    <_>
      <internalNodes>
        0 -1 142971 -5.2926139906048775e-003</internalNodes>
      <leafValues>
        -6.4597558975219727e-001 6.7840524017810822e-002</leafValues></_>
    <_>
      <internalNodes>
        0 -1 187329 1.6906433738768101e-003</internalNodes>
      <leafValues>
        9.5565460622310638e-002 -4.7394001483917236e-001</leafValues></_>
    <_>
      <internalNodes>
        0 -1 205401 -1.1561883147805929e-003</internalNodes>
      <leafValues>
        3.3319056034088135e-001 -1.2698224186897278e-001</leafValues></_>
    <_>
      <internalNodes>
        0 -1 203860 -1.1932777240872383e-002</internalNodes>
      <leafValues>
        -8.1189858913421631e-001 5.6897275149822235e-002</leafValues></_>
    <_>
      <internalNodes>
        0 -1 261581 -6.5702060237526894e-003</internalNodes>
      <leafValues>
        -1.0816771984100342e+000 5.0393566489219666e-002</leafValues></_>
    <_>
      <internalNodes>
        0 -1 204190 2.4334341287612915e-003</internalNodes>
      <leafValues>
        -1.4033536612987518e-001 3.1433975696563721e-001</leafValues></_>
    <_>
      <internalNodes>
        0 -1 33842 1.2357839150354266e-003</internalNodes>
      <leafValues>
        8.5416868329048157e-002 -5.6439322233200073e-001</leafValues></_>
    <_>
      <internalNodes>
        0 -1 85092 -3.0977567657828331e-003</internalNodes>
      <leafValues>
        2.6352670788764954e-001 -1.6227596998214722e-001</leafValues></_>
    <_>
      <internalNodes>
        0 -1 74653 -5.2948005497455597e-002</internalNodes>
      <leafValues>
        2.4570791423320770e-001 -1.8123252689838409e-001</leafValues></_>
    <_>
      <internalNodes>
        0 -1 10002 -2.5168053805828094e-002</internalNodes>
      <leafValues>
        5.7867306470870972e-001 -1.1268748342990875e-001</leafValues></_>
    <_>
      <internalNodes>
        0 -1 36814 -6.8971469998359680e-002</internalNodes>
      <leafValues>
        5.2577632665634155e-001 -9.5152765512466431e-002</leafValues></_>
    <_>
      <internalNodes>
        0 -1 261136 9.6634859219193459e-003</internalNodes>
      <leafValues>
        7.1688957512378693e-002 -6.8624764680862427e-001</leafValues></_>
    <_>
      <internalNodes>
        0 -1 244043 -4.5332368463277817e-003</internalNodes>
      <leafValues>
        6.1505883932113647e-001 -8.1701099872589111e-002</leafValues></_>
    <_>
      <internalNodes>
        0 -1 229291 1.2137856334447861e-002</internalNodes>
      <leafValues>
        -1.2354345619678497e-001 3.8088211417198181e-001</leafValues></_>
    <_>
      <internalNodes>
        0 -1 84669 -8.6283739656209946e-003</internalNodes>
      <leafValues>
        6.1510062217712402e-001 -7.4768014252185822e-002</leafValues></_>
    <_>
      <internalNodes>
        0 -1 242160 -3.3981702290475368e-004</internalNodes>
      <leafValues>
        2.0186275243759155e-001 -2.0489326119422913e-001</leafValues></_>
    <_>
      <internalNodes>
        0 -1 206213 2.7221541851758957e-002</internalNodes>
      <leafValues>
        -6.7569799721240997e-002 6.7914003133773804e-001</leafValues></_>
    <_>
      <internalNodes>
        0 -1 141619 -4.7841593623161316e-003</internalNodes>
      <leafValues>
        5.5500841140747070e-001 -8.2834981381893158e-002</leafValues></_>
    <_>
      <internalNodes>
        0 -1 119 -2.9455763287842274e-003</internalNodes>
      <leafValues>
        -8.1273078918457031e-001 6.1691440641880035e-002</leafValues></_>
    <_>
      <internalNodes>
        0 -1 50425 -1.7787481192499399e-003</internalNodes>
      <leafValues>
        -5.1749241352081299e-001 9.0203255414962769e-002</leafValues></_>
    <_>
      <internalNodes>
        0 -1 36861 -5.5228779092431068e-003</internalNodes>
      <leafValues>
        5.6876242160797119e-001 -7.7511645853519440e-002</leafValues></_>
    <_>
      <internalNodes>
        0 -1 243423 1.3277710415422916e-002</internalNodes>
      <leafValues>
        -1.0839498043060303e-001 3.7884312868118286e-001</leafValues></_>
    <_>
      <internalNodes>
        0 -1 252240 8.1153791397809982e-003</internalNodes>
      <leafValues>
        -2.1085004508495331e-001 2.2507995367050171e-001</leafValues></_>
    <_>
      <internalNodes>
        0 -1 50449 1.2450570240616798e-002</internalNodes>
      <leafValues>
        -7.8135907649993896e-002 7.2514444589614868e-001</leafValues></_>
    <_>
      <internalNodes>
        0 -1 231346 4.0398864075541496e-004</internalNodes>
      <leafValues>
        -1.4125125110149384e-001 3.2271075248718262e-001</leafValues></_>
    <_>
      <internalNodes>
        0 -1 255306 -1.7534203361719847e-003</internalNodes>
      <leafValues>
        -4.2184180021286011e-001 1.0964386165142059e-001</leafValues></_></weakClassifiers></stage8>
</opencv_storage>
