<?xml version="1.0"?>
<opencv_storage>
<stage1>
  <maxWeakCount>15</maxWeakCount>
  <stageThreshold>-1.7223368883132935e+000</stageThreshold>
  <weakClassifiers>
    <_>
      <internalNodes>
        0 -1 849 -7.5818932056427002e-001</internalNodes>
      <leafValues>
        6.0147064924240112e-001 -7.0487564802169800e-001</leafValues></_>
    <_>
      <internalNodes>
        0 -1 206630 4.5039102435112000e-002</internalNodes>
      <leafValues>
        -2.1119506657123566e-001 6.0188132524490356e-001</leafValues></_>
    <_>
      <internalNodes>
        0 -1 185105 -5.2444215863943100e-002</internalNodes>
      <leafValues>
        6.2739378213882446e-001 -2.0883479714393616e-001</leafValues></_>
    <_>
      <internalNodes>
        0 -1 22661 -1.2124299071729183e-002</internalNodes>
      <leafValues>
        7.0565557479858398e-001 -1.4796888828277588e-001</leafValues></_>
    <_>
      <internalNodes>
        0 -1 5584 -2.3572772741317749e-002</internalNodes>
      <leafValues>
        6.5583282709121704e-001 -1.9681595265865326e-001</leafValues></_>
    <_>
      <internalNodes>
        0 -1 53353 -5.1373139023780823e-002</internalNodes>
      <leafValues>
        6.8819630146026611e-001 -1.7122600972652435e-001</leafValues></_>
    <_>
      <internalNodes>
        0 -1 241222 -3.9768058806657791e-002</internalNodes>
      <leafValues>
        8.5762566328048706e-001 -1.1939660459756851e-001</leafValues></_>
    <_>
      <internalNodes>
        0 -1 230512 -1.6496375203132629e-002</internalNodes>
      <leafValues>
        5.7767271995544434e-001 -1.8705293536186218e-001</leafValues></_>
    <_>
      <internalNodes>
        0 -1 36346 -1.0882225818932056e-002</internalNodes>
      <leafValues>
        5.2609646320343018e-001 -1.6266271471977234e-001</leafValues></_>
    <_>
      <internalNodes>
        0 -1 113981 6.8094306625425816e-003</internalNodes>
      <leafValues>
        -1.9710044562816620e-001 6.8333333730697632e-001</leafValues></_>
    <_>
      <internalNodes>
        0 -1 152137 -2.8419213369488716e-002</internalNodes>
      <leafValues>
        7.5890928506851196e-001 -1.0107523947954178e-001</leafValues></_>
    <_>
      <internalNodes>
        0 -1 167549 -2.3191992193460464e-002</internalNodes>
      <leafValues>
        4.7555309534072876e-001 -1.9725266098976135e-001</leafValues></_>
    <_>
      <internalNodes>
        0 -1 50415 1.5145942568778992e-002</internalNodes>
      <leafValues>
        1.0681561380624771e-001 -1.1080124378204346e+000</leafValues></_>
    <_>
      <internalNodes>
        0 -1 98174 -8.3211157470941544e-003</internalNodes>
      <leafValues>
        -8.7106186151504517e-001 1.5131461620330811e-001</leafValues></_>
    <_>
      <internalNodes>
        0 -1 10152 -4.8309069126844406e-002</internalNodes>
      <leafValues>
        3.6783093214035034e-001 -2.3499473929405212e-001</leafValues></_></weakClassifiers></stage1>
</opencv_storage>
